00111011
00000111
00000011
01010001
01001011
11110110
11111010
01010100
01001001
11110100
11111000
01001000
01010101
11110100
11110101
01100001
01110011
11110110
00000011
01100110
01100100
00000000
11110111
01100111
00110101
11110111
00000100
00100000
00111101
11110111
00000011
00110110
01000100
11110100
00000111
00111001
00000000
11111111
11111111
00000000
10101011
00011110
00010111
11000101
00000001
11111011
11111001
00000000
00000110
00000001
00000001
00001000
10101101
00010100
00001100
10110111
10010001
00010001
01000000
11101001
00000100
11111000
11111101
00000000
00000001
00000100
11111001
00001000
10010101
00011011
01000000
11100010
10001110
11011010
00001111
00001000
11111011
11111011
00000000
11111010
00000101
11111111
11111000
00000100
10000110
11100011
00011110
11111011
00010111
00011110
00100001
00001011
11111111
00000011
11111110
00000111
00000111
00000110
11111110
00000111
00011100
00101001
00011101
00011011
00010111
00101111
01000011
00110000
00000101
00000000
00000001
00000011
00001001
11111010
00001000
11111011
00001000
00101010
01000110
00100111
00001000
11111110
00011110
00101011
00000010
11111011
00000001
00000010
00001001
00000010
11111111
11111001
00001001
00000100
00101110
00110001
01001101
00100010
00000110
00100010
00000111
00000000
00000001
00000111
00001000
00000001
00000011
11111100
01001101
00100100
11111100
00100101
00110011
00011011
00011111
00010111
00000111
00001000
00000100
11111000
00000101
00001001
00000101
11111100
00111111
00101110
00100111
00011110
00110010
00011101
00011100
00100000
00000100
11111110
11111001
00000001
00000100
11111111
11111100
11111010
00110011
00101000
00010101
00101000
00000000
11110101
11101100
11111100
11111101
00000010
11111101
00001011
00000100
11110111
11111011
11111010
11110111
11101110
11101110
00000001
11111111
00001101
00001000
11101010
11111101
11111110
11101111
00000000
11111110
00000001
11111011
00001010
00000011
11111000
00000101
11111111
11110110
00000011
11101011
00001001
11111100
00010100
00000110
11100011
11111111
11111100
11100111
11100111
11110111
11110111
00000001
00001000
00001011
11110100
11111110
00000100
11111010
11101000
11110010
11111111
00001010
00001101
11110101
11110101
00000010
11101110
11101011
11011001
11101111
00000100
00000101
00001101
11110101
11101100
00010010
11101011
11101010
11101110
11110100
11111010
00000111
00010000
11111011
11101100
00000111
11110001
11101111
11000100
11111011
11110111
00000101
00000110
00000111
11111001
11111011
00000010
11111100
11101101
11111010
11110000
00010000
00001111
11101000
11111010
00001111
11101010
11111011
11011001
11110011
11101111
00010011
00001101
11010101
11101111
00010011
11011001
11110110
11010001
11111001
11110000
00001100
00000111
11110100
11111010
00001000
11101011
11111011
11010010
11111111
11111111
00000010
00000010
00000011
11111010
11110101
11111101
00000001
11110100
11111110
00000101
00010001
00001110
11011101
11111101
00000100
11011011
00000101
11100110
11111001
11110100
00010100
00010100
11001000
11111001
00010011
11010010
11110110
11011100
00000001
00001010
00001100
00001000
11110100
11111100
00000000
11011010
00000101
11100001
00000011
11111111
00000011
00000000
11111111
11111001
11111010
11110010
00000011
11111001
00000111
00000011
00001110
00001000
11100000
11111110
00000010
11001011
00001001
11011010
11111011
00000101
00010101
00010010
11001100
11111011
00010000
11001011
11111101
11010101
00001001
00001001
00001010
00000110
11110100
11111101
00000010
11001001
00001011
11011100
00000011
11111111
00000010
11111111
11111110
11111100
00000000
11101010
00000110
11111001
00001000
11110110
00001110
00000101
11100101
00000100
00001001
10111010
00001010
11001010
11111010
11110000
00010001
00001111
11010111
00000101
00010100
10111001
11110101
11000110
00000110
00000001
00001000
00000100
11111001
00000011
00001010
10111110
00001010
11010110
00000001
11111110
11111101
11111001
00000110
00000000
00000100
11100111
00000100
11101111
00000110
11111110
00000110
00000001
11110101
00001001
00011000
10110000
00000100
11000011
11111011
11101010
00001001
00001001
11101011
00001001
00011111
10111100
11110010
11001001
00000011
00000000
00000000
11111011
00000011
00000110
00010001
10100100
00000110
11000100
00000001
00000011
11110111
11110011
00001001
00000100
00001101
11100100
00000011
11100001
11111101
00010000
11111000
11101111
00000001
00000010
00011110
10100101
00000000
11000001
11110111
00000001
11111000
11110100
11111010
00000101
00100000
11001111
11110101
11001110
11111100
00001110
11110111
11101110
00001011
00000111
00011001
10010101
00000010
10111010
00000000
00000001
11110000
11101000
00001100
00001100
00001010
11011100
11111111
11001110
11101110
00000011
11100100
11010101
00001001
00001101
00100110
11000010
11110010
10110010
11101110
11111010
11101000
11011110
00000001
00001000
00011101
11101111
11110010
11101100
11110001
00000010
11100001
11001100
00001010
00001101
00100001
10101010
11111000
10011001
11111010
11111010
00000011
00001100
00001001
11100100
11101100
00001111
11111101
11100110
11100001
00000111
00000110
00010001
00000101
11011010
11110111
00010001
11101111
11010000
11101110
11111011
00000010
00010000
00001011
11100110
00000001
00000010
11101100
11100011
11101010
11111110
00000011
00011010
00001001
11011010
11110010
00010001
11101011
11000101
11111000
11111110
00000101
00001101
11111011
11110001
11110001
00010001
11111100
11110010
11110100
11110101
00000111
00001100
00000010
11110100
11110110
00001101
11111011
11100011
11111110
11111101
00000010
00000101
00000100
00000000
11111100
00001010
11111011
11100101
11110011
11110010
00000110
00001100
00000000
11110111
11111001
00010011
11111101
11100111
11110111
11100111
00000110
00000111
11111111
11111001
11101000
00001011
00000001
11111101
11111001
11100110
00000110
00001000
11111100
11111111
11111001
00001100
11111111
11110101
11111100
11110001
00000011
00000100
11111100
00000001
00000000
00000011
11111110
11110110
11111101
11101011
00000100
00001001
11111111
00000000
11111101
00001101
00000101
11111100
11111100
11101000
00000010
00000010
11111101
11111100
11101010
00000101
00000001
00000100
11111110
11110111
00000110
00000110
11111001
00000011
11110110
00000101
11111111
11111110
11111110
00000011
00000011
00000010
11111000
00000010
11111010
00000000
11111111
11111011
11111101
11110110
00000001
00000011
11111010
11111111
11111011
00000100
00000010
00000011
00000001
11110101
00000001
00000001
11110110
11111111
11110000
00000010
00000010
00000101
00000010
11111110
00000011
00000011
11110000
11111111
11111001
00000000
00000010
00001000
00000001
00000000
00000010
00000001
11101101
11111110
11111011
11111000
00000001
00000000
00000011
11111011
11111111
00000000
11110010
11111111
11111110
00000001
00000011
00001001
00000101
11111011
00000000
00000000
11110101
00000000
11101011
00000011
00000010
00000110
00000110
11111110
00000010
00000001
11101111
11111110
11111010
11111111
00000001
00001000
00000100
11111111
00000001
00000010
11110010
00000000
11111110
11111010
00000010
00000000
00000100
11111100
11111101
11111110
11110101
11111110
11111110
00000001
00000010
00000111
00000110
11110110
11111111
11111110
00000000
00000011
11101010
00000011
00000100
00000100
00000100
11111100
11111111
11111111
11111000
00000000
11111010
11111110
00000010
11111111
00000110
00000011
00000011
00000010
11111000
00000011
00000011
11110110
00000011
11111111
00000000
11111001
11111010
11111100
11111111
00000100
11111100
00000010
00000001
00000001
00000001
11111000
11111010
11111011
00000010
00001011
11110001
00000000
00000110
11111011
00000010
00000000
11111110
11111000
11111111
00000101
00000000
11111000
00000100
11111000
00000110
00001000
00000010
11111110
11111110
00000010
00000011
11101100
00000100
11111000
00000000
00000000
11111000
11110110
00000100
00001011
11111110
11111101
00000011
11110101
11111100
11110011
11110101
11101100
00000110
00010011
11111100
11111010
00000111
11101101
00000000
11111101
11101101
11100001
00010010
00010010
00000101
11100011
00001001
11010011
11110111
00000001
11101001
11101000
00001110
00010001
00010000
11001111
00000111
11010100
11111110
11110101
11100111
11011110
00010001
00011011
11111111
11101100
00001011
11010010
11111100
11111101
00000111
00001110
11101101
11100011
11101011
00001001
11111101
11110101
11101110
11110110
00001001
00010111
11111000
11001101
11100100
00011010
11111101
11011110
11110001
11111101
00000110
00001100
00000010
11011101
11101010
00010001
00000001
11100100
11101111
11110011
00001101
00010011
11101111
11100011
11100010
00010010
11111011
11101011
11110111
00000000
00001101
00010000
11101001
11101100
11100111
00000110
11111111
11111101
11111010
11110110
00000001
00001000
11111011
11111010
11110100
00001001
00000001
11111010
11111101
00000000
00000000
00000101
11111101
11111110
11111101
00000110
00000010
11111101
11111100
11111000
00000000
00000110
11110110
11111001
11111011
00000100
00000010
11111100
11111011
11101011
00001011
00000011
11111001
11110110
11101111
00001001
00000001
00000111
11111101
11110001
11111111
11111110
11111110
00000010
11111100
00001010
00000011
11111110
11111110
11110110
00000001
11111111
00000000
00000011
11111110
00000100
00000010
11111111
11111101
11101010
11111111
11111001
00000000
11111111
11111100
00000111
00000010
00000101
00000000
11011100
00000011
11111111
11111110
11111110
11110111
00001100
00000011
00001010
00000001
11111001
11111101
11110111
00000100
00000101
11111101
00001000
00000011
00000011
00000000
11111001
11111110
11111011
11111110
00000001
11111100
00000101
00000001
00000001
00000011
11110001
11111001
11111000
00000000
00000000
00000001
00000011
00000010
00000101
00000000
00000100
11111110
00000010
11101010
00000101
11110101
00001100
11111010
00000001
00000001
00000110
11111100
00000000
11110011
00000001
11111100
00000110
11111111
00000001
00000101
00000110
00000001
00000001
11110001
00000001
11111111
00000101
11111111
00000100
00000001
00001010
11111010
00000010
11110010
11111111
00000000
00000100
11111101
00000011
11111101
00001000
11111110
00000001
11101001
00001010
11110110
00001101
11110101
11111111
00000110
00001000
00000000
00000111
11110110
11111010
11110111
00000111
11111101
00000100
00000101
00000001
00000000
00000011
11110110
11111100
11110111
00000110
11111100
00000011
11111111
00000010
11111100
00000100
11111101
11111000
11111000
00000110
11111100
11111111
00000100
11010100
11111011
11110101
11111001
00001011
00000010
00001010
11111101
00000101
00000111
11111001
00000010
00000100
00000001
11111000
11101110
00000110
00000001
00000100
00000110
11111111
00000000
00000000
11111111
11111101
11110001
00000100
00000001
11111111
00000011
11111001
11111100
00000000
00000101
11111101
11110000
00000111
00000011
11111101
00001001
11000011
11111000
11110011
11101110
00010001
00000111
00000010
00001010
11111111
00000110
11111100
00000000
00000010
11111110
11111100
11110011
00000010
00000101
11111101
00000010
00000010
11111111
00000001
11111111
00000010
11110011
00000011
00000010
11111110
00000011
11110010
11111000
11111011
00000000
00001001
11111000
00000000
00000110
11110111
00000011
11011111
11110000
11101110
11101001
00011100
00000001
11110100
00001011
11110100
00001001
11101001
11111000
11110000
11111110
00010010
11101010
11101111
00001000
11100100
00000110
11110000
11101110
11100111
00000001
00011100
11110100
11110001
00001010
11100010
00000001
11010101
11101001
11100010
11111000
00101001
11101101
11101111
00001101
11011101
00000100
00001000
00000101
00001011
11110110
11110011
11111010
00001110
00000000
11111011
11101100
00000001
11101101
00001001
11110110
11111110
11101011
00011010
00000011
11111001
11110101
11111110
11110101
00001011
11110100
11110110
11101000
00010010
00000100
11110111
11111111
11111010
11100011
00000000
11110100
11111101
11110011
00001011
00000101
00000101
00000010
00001000
00010010
00001110
11111110
11101110
11110000
00001011
11101001
00000011
00000000
11111100
11100101
11101111
00000011
11111110
00000000
00001010
00001000
00000111
00000000
00000110
11101101
11110010
00000000
00000110
00000001
00000101
00000011
00000011
00000010
00000010
11101011
11101101
00000111
00000010
00000110
00000110
00000011
00001010
00000010
11101010
00001001
00010011
00000110
11110101
11110101
00000010
11101000
00000000
00000010
11110011
11101000
11101000
00001110
00000100
00000010
00000100
00000100
00000111
11111110
11110011
11110000
11101011
00000111
00000100
00000000
00000101
00000011
00000111
00000111
11011100
11101100
11110100
00001111
00000011
00000101
00000011
00000010
00001100
11110101
00000010
11111110
00010011
00000011
00000000
11110011
11110110
00000010
11110110
00000101
11101001
11101000
11110111
00001101
00001000
00000101
11111110
00000111
00000101
00000010
11110110
11101111
11110111
00001001
00000101
00000100
00000000
00000100
00000010
00000001
11111100
11101100
00000010
00001000
00000100
00000100
11111011
00000011
00000010
11001111
11111010
11111011
00001001
00000000
00001110
11111110
11100100
00001110
00000000
11111000
00001011
11101111
00000000
11111110
00000011
11111100
11110111
00000101
11111010
11111100
00001111
11110101
00000101
11110111
00000001
11111110
00000100
00000010
11111011
11110101
00001011
11111000
00001000
11111101
00000000
00000000
11111001
00000000
00000000
10111001
11111110
11101110
11111110
11111011
00010001
00001111
11101110
00001011
00001110
11110010
00001100
11111001
00000011
00000110
11110111
11110111
00000111
11111110
00000101
11111001
00000101
11111101
00000011
00000100
11110011
11110000
00000111
11111101
00000011
11101010
00000001
11111100
00000010
00001001
11110100
11111001
00000100
00000010
00001000
11101000
11010100
11101000
11111010
11111011
00010011
00010010
11111010
11111111
00001101
00000010
11111000
00000000
00000000
00001010
11101110
11110110
00001001
00000000
00001001
00000100
11111110
00000001
00000100
00000110
11101011
11110111
00000111
00000010
00000110
11111011
11100111
11111101
11111110
00000110
11110001
11111111
00000110
00000110
00001000
00000000
11101001
11101110
11110101
11111000
00010111
00001111
11111000
00000000
00000000
00001000
11101100
00000001
11111011
00000000
11100010
00000110
00000011
00000101
00000100
00000110
11110010
00000001
11111111
11111111
11100111
00001000
00000001
00000011
00000000
00001000
11100001
11111111
11110011
00000010
11101100
00001101
00000011
00001101
00000100
00001001
00000000
11111010
11101001
11111000
00000110
00010000
11110010
00000100
11110100
00010101
11010011
11110111
11011001
11110101
11110101
00010011
11101111
00010000
11110000
00010001
11010000
11101111
11010101
11110100
00010001
00001011
11101101
00001111
11100111
00010010
11011010
11111010
11010000
11101011
00000111
00010001
11101010
00010011
11101000
11111101
11111100
00010001
00001011
11111101
11111100
11101110
00001101
11100010
11100110
11110110
11111010
11110010
11111101
00000010
11110010
11100000
00010111
11110000
00001000
11110101
11111111
11100110
11110100
00000101
11111100
11101101
00010110
11111011
00001001
00000010
11111010
11110001
11111111
00000011
11101111
11110110
00001011
11100100
00001010
11111100
11111101
00100000
00001100
00000110
11110011
11100101
00001111
11101111
11011001
00000100
11111010
11101110
11100001
00001111
11111010
00000101
00000111
11110101
00001110
00000010
00000000
11101000
11011110
00001110
11111110
00000100
00000111
11111011
00001011
00000101
11111000
11111000
11101101
00001110
11111001
11111111
00001001
11101100
00001000
11111001
11110100
00010101
00010000
11111010
11110000
11110010
00000001
11111101
11110101
00001001
11010111
11110011
11101111
00001101
00000100
00000010
11111000
11111101
00001010
00000110
11011100
11101111
11110011
00001101
00000110
00001000
11111101
11111100
00001000
00001010
11010010
11111111
11111101
00001111
00000011
00001010
11111010
11111000
00000111
11100001
00000000
00010011
00001100
00000010
11110111
11110000
11110100
11111111
00001000
00000011
11110000
11111001
11111101
00001011
00000110
00001000
11100110
00000011
00000011
00000010
11110110
11110101
00000001
00001010
00000101
00000101
11101011
00000100
00000000
00000001
00000100
00000010
00000101
00000110
11111110
00000011
11100100
00000010
00000000
10111100
11100111
00001110
11111110
00001010
00000110
00001000
11101111
00000001
00000111
11101010
00001101
11111111
00000101
00000111
00000010
00000100
11101001
00001000
00000011
11101011
00001001
11111100
00000101
00000100
00000000
00000000
11110001
00000111
00000010
11010000
00001001
00000101
00000000
00000110
11111001
00000011
11110111
00000010
00000101
11100010
11101010
00000011
11111110
00000010
00001110
00010000
11100111
00000001
00000011
11100010
00001011
11111101
00000000
00001000
11111001
11111101
00000010
00000010
00000110
11100111
00000100
11111100
11111111
00001000
11110101
11111010
00000010
11111111
00000110
11110000
11111011
00000010
11111011
00001000
11110101
00000001
00000010
00000001
00000101
11101001
11010011
11110101
00001100
00000011
00010000
00001100
11111111
00000000
11101100
00000000
11011111
11111101
11111110
00001110
11111000
11111111
00001001
11111011
00001001
00000101
11101001
11111111
11111111
00001000
11110110
11111111
00000111
11111100
00001001
00000110
11000011
00000010
11111100
00001010
11110110
00000011
00000111
11111011
00000100
11101100
11101110
11111011
00001101
00000111
00001101
00000011
00001111
11111000
11010110
00001000
11011011
11111110
11111000
00000110
11110110
00000110
00000110
11110110
00000101
00001000
11100100
11111110
11110101
00001000
11101110
00001011
00000100
11111101
00001100
00000110
11010100
11111010
11111001
00001010
11110001
00001000
00000010
11111000
11111000
11110010
00000100
00001100
00000001
00000001
00001100
11110011
00000100
11110111
11010110
00010100
11100100
00000001
11101011
11111111
11101001
00010010
11110011
11111100
11101111
00001111
11110010
00000001
11101110
11111000
11011010
00010011
11101110
00001010
11101011
00001101
11100110
00001110
11110111
11111111
11101100
00000101
11111001
11111000
11011000
11101100
11101000
00000101
00010100
11110110
00010111
11011110
00000101
11110101
11010110
11111011
11010111
00001111
00011110
11110011
11110110
11010001
00000110
11010011
00000001
11111101
11101011
00010000
00011011
11111010
11101101
11100000
00000111
11010100
00000100
00000011
11000101
00001011
00010101
11111010
11111111
11100010
11111101
11100000
11110110
11101000
11110000
00000111
00010000
11110101
00010110
11010110
00000010
00000100
11011000
00000011
11010101
00000000
00000011
00001001
11111110
11111101
11111011
11110010
00001001
00000100
11011010
00000000
11111000
00001010
11110100
00000001
11111110
11110110
00000110
00000110
11011111
00000011
11111110
00001001
11111101
11111110
11111111
11111010
00000001
11100111
11110011
00000101
00000110
11101011
00001100
11011111
00000001
00001100
00000101
00001011
11110010
00000000
11110100
00001000
11111000
00001001
11110100
11111011
00001011
00001001
11110101
11111110
11101111
00001001
11111010
00000110
11110010
11111010
00000100
00001001
11110101
00000011
11110010
00000100
11110110
00001000
11111011
00000101
11111111
11110001
11110001
00000000
11111110
00000010
11111110
11110111
00001000
11111010
00010001
00000100
11111101
00000011
11110011
00000101
11110101
00001011
11101111
00000011
00000001
00000001
00000010
00000101
11111000
00000100
11111001
00001000
11101011
00000100
11111110
11111011
00000111
00001000
11110010
00000000
11110000
00001000
11111011
00001011
11111110
00000010
11011101
00000100
00000001
00001101
00001100
11111110
00000110
11011110
00000111
11100110
00001011
00001000
11111010
00000101
11110111
00000101
11111000
00000110
11111101
11011110
00001000
00000101
11111101
00000101
11111000
00000011
11111100
00000010
00000000
11110011
00001100
00001001
11110111
00001000
11110100
00000101
00000110
00000011
00000100
00000001
11110000
00000101
00001011
11110111
00001100
00000101
11101111
11111100
11100101
11110110
00000011
11111110
11111101
00000111
11111000
00000000
00000010
00000000
00000010
11111000
11111101
00000000
11111110
00001001
11111010
00000000
00000011
11111101
00000110
00000000
11110010
00000011
11111101
00001000
11111010
00000001
00000100
11110101
00000011
11110111
11101011
00000111
00001010
11111010
00000100
00000101
11111010
00001010
11010011
00000101
11001111
11111111
00000001
00000111
00000000
00000001
00000011
11110111
00000100
00000110
11010011
00000011
00000001
00000111
00000000
00000001
00000110
11110111
00000011
00001011
11010011
00000010
00000101
00000011
00000010
00001001
00000111
11110100
11111101
11100010
00001011
00001111
00000011
11111111
11111101
11111000
11111111
00000110
11011010
00001000
11110101
11111110
00000001
11111110
00000001
00000110
11111111
11110111
11111000
00000100
11111011
11111101
00000000
11111011
11111111
00000100
11111110
11110111
11111010
00000101
11111110
00000110
11111011
00000000
11111100
00000110
00000000
11111000
11101110
11100111
00001101
00011110
11111111
00000001
11111010
11101101
11110011
00000111
11101001
00001001
11111010
00001010
11111111
11110000
00000001
00000100
11101010
11111110
11011111
00010000
00001001
00001110
00000000
11110010
00000101
00000010
11101011
11111010
11010111
00001000
00000101
00100011
11111001
11110011
11111011
11111100
11101011
11111001
11001110
11101011
00001100
11111001
00010001
11111010
00001010
11100111
11110110
11110100
11110010
11111001
11101011
00010110
00100101
11100010
11111101
11001010
11101010
11101000
11100100
00000010
11011111
00010001
00011010
11100101
11111001
11010110
11110110
11110001
11111000
00000010
11101110
00010001
00011100
11101011
00000011
11010010
11101010
11111000
11101000
11011011
00000000
00000011
00011001
11101111
00011100
11001000
11111001
11110100
11111100
00001000
11111000
00001001
00001110
11100111
00001000
11110100
11011100
11111101
11110100
00000100
11111100
00001001
00001011
11110111
00000011
11111001
11100100
11111111
11111010
00000101
00000001
00001010
00001000
11100111
00000110
11110011
11100111
00000011
11100110
11110111
11111110
00000010
00010010
11101101
00010100
11100010
11111001
11101100
00000001
00001001
00000001
00000111
00000011
11101011
11111111
00000010
11101100
11111111
11110111
00001000
00000011
00000111
11111011
11111001
11111100
00000110
11101101
00000011
11111010
00000101
00000000
00001000
11111100
11101001
00000000
00000101
11110011
00000110
11101011
00001001
11110100
11111100
00001101
11101000
00001111
11111100
11111001
11100101
00001001
00001000
11111111
00000101
11110111
11110100
11111100
00001011
11111010
00000010
11110001
00000101
00000101
00000110
11110011
11111011
11110101
00001011
11111111
00000011
11110110
00000001
00000100
00000011
11111100
11110110
11111110
00000110
11111110
11111111
11110100
00001101
11011010
11111101
00010000
11010010
00001110
00001001
11110000
11110101
11111100
11111111
00001000
00000011
11111000
11111101
11111011
00001000
00000000
11111111
11111001
11111100
00000110
00000010
11111001
00000010
11111010
00000100
00000001
11111101
11111100
00000001
00000001
11111100
11111101
11111101
11111110
00000011
00000000
11110100
11111101
00000110
11111010
00001001
00001001
11001010
00001000
00001011
11011110
11111111
11011101
11111110
11111110
00000000
00000000
00000001
00000010
00000110
11111110
11111101
00000000
00000000
11111011
00000000
00000001
00000011
11111111
00000010
11111101
11111011
00000000
00000110
11110010
00000001
00000110
11111001
00000011
00001001
11111010
11111011
11111100
11111011
00000110
00011001
00000001
11101010
11111101
00000111
11011001
00000110
11010100
00000010
11111000
00000010
00000110
11111010
00000101
00001000
11110011
11111111
11111001
00000010
00000001
00000001
00000100
11111001
00000110
00000100
11110101
11111011
11111100
00000111
11111101
00000110
00001001
11110001
00000101
00001110
11110000
11111111
11110100
11101010
00001110
00101010
11101110
11111000
11110000
11111010
11101000
11111110
11110001
11111110
00001000
00000100
00000100
11110000
00000111
00000101
11100101
00000000
11111011
11111111
00010110
11111111
00000010
11110101
00001000
00000010
11101000
00000000
11111100
00000110
00001001
00001011
00000000
11101111
00000101
00000110
11011101
00000000
11110111
11101001
00000001
00101010
11101001
11111010
11111001
11101101
11101110
11111010
11111010
00000110
00000100
00001000
00000000
11100000
00001100
11111101
11010101
00000101
11101101
00000011
00001101
00001010
11111100
11100001
00001001
11111001
11100010
00000101
11110001
11111100
00001000
00011011
11101101
11100001
00001000
11111011
11001110
11111101
11101111
11100110
00001110
11110101
00001100
11110101
00000111
11101111
00001100
11100101
00000010
11111110
00001000
00010100
00011010
11010110
11110100
11000111
11110111
11101010
11101000
11111101
00000110
00010011
00010100
11101000
11110001
11001101
11110100
11110100
11111000
00000110
00010010
00010000
00001101
11011000
11101110
10111110
11111111
11110011
11110010
11100000
00000100
11110100
00010110
00000001
00010001
11010110
00000011
11001001
00000011
00001001
00001100
00001010
00001011
11010001
11111011
11011101
00000001
00001000
11111010
00000101
00001101
00001011
00001011
11010100
11111100
11101101
00000000
00000100
11110111
00000100
00000111
00001100
00001100
11011110
11111110
11011000
00000011
00000010
11110101
11111010
11110101
11111001
00010001
11111000
00010000
11010000
11111111
11100110
00000111
00000101
00000001
00000101
00000100
11100101
11111110
11110010
11111011
00000011
11110011
00000101
00000101
00001000
00000100
11101010
00000001
11111100
11111110
00000011
11110101
00000101
00000010
00001000
00000100
11110010
00000010
11110011
11111111
00000000
11110111
00001000
11010001
11110100
00001101
11011100
00001111
11101110
11101100
00000100
00000101
00001001
11111100
00000010
11111111
11110000
00000000
00000100
11111100
00000011
11110100
00000100
11111111
00000010
11111110
11110011
11111111
00000110
11111110
11111110
11110110
00000100
11111100
11111101
00000010
11111010
00000010
11111011
11111111
11111110
11111011
00010001
11001101
11111110
00001101
10111001
00001101
00000010
11100000
00001111
11110010
00000101
00000001
11111100
00000000
11111011
00000000
00000110
00000000
00000010
11111011
00000010
00000000
11111101
11111111
11111011
00000000
00000110
11111111
11111111
11111010
00000010
11110110
11110111
00000010
11111100
00000001
00000000
11111100
00000100
11111011
00001101
00000011
00000100
00000100
11011110
00000101
11111111
11101100
00001001
11101001
11111110
00000100
11111011
00000011
00000000
00000011
00000000
11111011
00000011
11111010
11111110
00000011
11111100
00000100
11111110
00000011
00000100
11110111
11111110
11111001
00000100
11111000
11111010
00000011
11111011
00000100
11111110
11110011
00000110
11111010
00000001
00001100
00011101
11101110
00001100
11110101
11110001
11100101
11111011
11110110
11111001
00001100
00000001
00000001
00000000
00000110
11111011
11101111
00000011
11111101
11111101
00001110
11111111
00000011
11111100
00000100
11111111
11101111
11111111
11111011
00000011
00001010
00000100
00000010
11111110
00000101
11111100
11100110
00000110
11111111
11100110
00000011
00101110
11011001
00010001
11101011
11101001
11101111
11101101
00000110
00000000
11111000
11111011
00000000
00000000
00001000
11110100
11011100
00000101
00000101
00000100
11111111
11111001
11111110
11111111
00001001
11111011
11011110
00000100
00000100
00000010
11111111
00000101
11111010
00000100
00001010
11110001
11011001
00000100
00000011
11110100
11111100
00011001
11100001
00000111
11101111
11101101
11110001
11110010
00001110
11111110
11110111
00000000
11101010
11111100
00010110
11101000
11001100
00000010
00001111
11111111
00000110
00000011
11110000
11110111
00010100
11110010
11011100
00000010
00001011
11111000
11111000
00010110
11100000
00000010
00001010
11100001
11001101
11101111
00001100
11110111
11110000
11101010
00001001
00000001
11110011
00000000
00000111
11100010
00001110
11100110
11111100
11110011
00100010
11110000
11111001
11101110
00010101
11010110
00000100
11101011
11111010
11111110
00011001
11100110
11111000
11110001
00001111
11011111
00000110
11100111
00000010
11110100
00011011
11101100
11101111
11100011
00010010
11011000
00001101
11011010
11011011
11100000
00011101
11110001
00000100
11111111
00000011
11000100
00001111
11110111
00000110
11110100
00010000
11101101
11101100
10111000
00011100
11110100
00001110
11111111
00010000
00000001
00000100
11110100
11101010
10110101
00011011
11111110
00001110
11100110
00000010
11101110
00010010
11110111
11110001
10110100
00011001
11110010
00010100
11010110
11001101
11011011
00101001
11001101
00001101
11110011
11111110
11011101
00000011
11111010
11111000
11110110
00001010
11111110
11111010
10110010
00010100
00000100
00001001
00000001
00000100
00000001
00000101
00000010
11111110
10111111
00001110
00000011
00000110
11101001
11110100
11101111
00010000
00000010
11111111
10010101
00010000
11111010
00001101
11100101
11010001
11100010
00101110
10111000
00011010
11110101
11110100
11110101
11110001
00000011
11110000
11110110
00001010
11111010
00000110
10110101
00001011
00000110
00000100
00000110
11111000
11111100
00000101
11111011
00000100
11010000
00000111
00000010
00000010
11110100
11100111
11101101
00010011
11111011
00001010
10100001
00001110
00000010
00001100
11111101
11100010
11110100
00100100
11000101
00010110
11110011
11110010
00000101
11100111
11111111
11110101
11110010
00000101
11111010
00001001
11000111
00001001
00000111
00000011
00000100
11111101
11111010
00000101
11111100
00000110
11100000
00000101
00000110
00000000
11111010
11101011
11101100
00010001
11111000
00001101
10110100
00001100
00001011
00000111
00000001
11101010
11111111
00001010
11100100
00000111
11110011
00000010
00000111
11111100
11111000
00001000
11110010
00000100
00000001
00000111
11001100
00001100
00001000
00000111
11111100
00001101
11111001
00000001
00000000
00000111
11100001
00000100
00000101
00000010
11111000
11110000
11110011
00001010
11110111
00001000
11000111
00001001
00001100
00001011
11101110
11100101
00001101
11110110
11101111
11111011
11101101
11111110
11110010
00011000
11101101
00000110
11110110
00000000
00000000
11111111
11001100
00000000
00000010
00010000
11110100
00000111
11110111
11111111
00000010
00000110
11011100
11111011
00000011
00001000
11101000
11110100
11111001
00000100
11110110
00000001
11001100
00000001
00001000
00010011
11110010
11111101
00001001
11110010
11101100
11110111
11110110
11111011
11100110
00010110
11100011
11111011
11110101
11110001
00000010
00001010
11011000
11111100
00000100
00010111
11101101
11111110
11110110
11110100
00000100
00000110
11100100
11110101
00000110
00010111
11100110
11110101
11111101
11110101
11111100
00000101
11010101
11110001
00000010
00100000
11110110
11111110
00000110
11111010
11110101
00000001
11111110
00000011
11110001
00000101
11101001
11110011
11111010
11101101
11111000
00001001
11010110
11101110
11111000
00011001
11110010
11110101
11111001
11110001
11111110
00000101
11101011
11101100
11110010
00010101
11101011
11110100
00000001
11101010
11111001
00001011
11100101
11101011
11110010
00010011
11101110
01001110
11101110
11011101
00010111
00001000
00000010
00011101
11010100
11111001
